TRT-101401-EntropyCalibration2
images: 3bece9d4
/model.0/conv/Conv_output_0: 3dde6875
/model.0/act/Sigmoid_output_0: 3c010a14
/model.0/act/Mul_output_0: 3d29056d
/model.1/conv/Conv_output_0: 3e0deabc
/model.1/act/Sigmoid_output_0: 3c010a14
/model.1/act/Mul_output_0: 3d450131
/model.2/cv1/conv/Conv_output_0: 3df88d1b
/model.2/cv1/act/Sigmoid_output_0: 3c010a14
/model.2/cv1/act/Mul_output_0: 3d6a87a4
/model.22/Expand_4_output_0: 3e1d4449
/model.22/Unsqueeze_3_output_0: 3f204a85
/model.21/Slice_1_output_0: 3d01d678
ONNXTRT_ShapeShuffle_600_output: 0
/model.21/m.0/cv1/act/Mul_output_0: 3cc00169
ONNXTRT_ShapeShuffle_613_output: 3c010a14
/model.21/m.0/cv2/act/Sigmoid_output_0: 3c020a4a
/model.22/Reshape_6_output_0: 3f204a85
/model.21/m.0/cv2/act/Mul_output_0: 3c994830
/model.22/ConstantOfShape_2_output_0: 0
/model.22/Concat_23_output_0: 3e810a14
/model.22/cv2.2/cv2.2.1/act/Mul_output_0: 3cd36115
/model.21/cv2/conv/Conv_output_0: 3d7b76fb
/model.15/cv2/conv/Conv_output_0: 3d8077f0
/model.22/cv3.2/cv3.2.0/conv/Conv_output_0: 3d3f5af0
/model.22/Constant_27_output_0_output: 0
/model.22/cv2.0/cv2.0.1/conv/Conv_output_0: 3db96a34
/model.12/Slice_output_0: 3ce6cbc7
/model.15/cv1/conv/Conv_output_0: 3d889c42
/model.22/Reshape_13_output_0: 3e1d4449
output: 40a5cfd3
/model.22/Add_2_output_0: 3d810a14
/model.22/Constant_26_output_0_output: 3b810a14
/model.22/cv2.0/cv2.0.0/conv/Conv_output_0: 3d8271c2
/model.22/Reshape_4_output_0: 3f204a85
/model.22/cv2.2/cv2.2.0/conv/Conv_output_0: 3d9678ec
/model.22/Add_8_output_0: 3e810a14
/model.22/Reshape_14_output_0: 3e1d4449
/model.22/cv3.2/cv3.2.0/act/Mul_output_0: 3c4017b7
/model.22/cv3.1/cv3.1.1/act/Sigmoid_output_0: 3c011192
/model.22/Slice_output_0: 3df36214
/model.18/cv1/act/Mul_output_0: 3cff8b0d
/model.12/m.0/cv2/act/Mul_output_0: 3d13516c
/model.16/act/Sigmoid_output_0: 3c00e6c7
/model.15/m.0/cv2/act/Sigmoid_output_0: 3c010ccf
/model.2/Slice_output_0: 3d6944f9
/model.22/cv3.0/cv3.0.0/act/Sigmoid_output_0: 3c00ee4d
/model.19/act/Mul_output_0: 3d000c1c
/model.22/Range_output_0: 3f1f4871
/model.22/Unsqueeze_12_output_0: 3f204a85
onnx::Shape_699: 3e6b0bba
ONNXTRT_Broadcast_672_output: 3e010a14
/model.22/Range_3_output_0: 3e9d4449
/model.22/Mul_5_output_0: 40a5cfd3
/model.22/Split_1_output_1: 3e89ea97
onnx::Reshape_737: 3dfcbad3
/model.18/m.0/cv1/act/Sigmoid_output_0: 3c008809
/model.22/cv3.2/cv3.2.1/conv/Conv_output_0: 3d5febda
/model.22/Slice_1_output_0: 3df04c54
/model.22/cv3.2/cv3.2.1/act/Mul_output_0: 3c95a956
/model.22/Concat_15_output_0: 3e9f4871
/model.22/Expand_5_output_0: 3e1d4449
ONNXTRT_Broadcast_603_output: 3d810a14
/model.22/cv3.0/cv3.0.1/conv/Conv_output_0: 3da32960
tmp_refittable_weight_output: 0
/model.18/Slice_1_output_0: 3d120622
/model.22/Range_2_output_0: 3e9d4449
/model.15/m.0/cv1/act/Mul_output_0: 3d02440d
/model.18/cv2/act/Sigmoid_output_0: 3c010f0c
ONNXTRT_Broadcast_559_output: 3b810a14
tmp_refittable_weight_0_output: 0
/model.21/Slice_output_0: 3d00a76b
/model.2/Slice_1_output_0: 3d6a87a4
/model.2/m.0/cv1/conv/Conv_output_0: 3dd9641f
/model.2/m.0/cv1/act/Sigmoid_output_0: 3c011220
/model.2/m.0/cv1/act/Mul_output_0: 3d2778f1
/model.2/m.0/cv2/conv/Conv_output_0: 3dc68bea
/model.2/m.0/cv2/act/Sigmoid_output_0: 3c011223
/model.2/m.0/cv2/act/Mul_output_0: 3d6628b5
/model.2/m.0/Add_output_0: 3de5e6e8
/model.2/Concat_output_0: 3d911a8f
/model.2/cv2/conv/Conv_output_0: 3de5f155
/model.2/cv2/act/Sigmoid_output_0: 3c010a14
/model.2/cv2/act/Mul_output_0: 3d40c867
/model.3/conv/Conv_output_0: 3db1026e
/model.3/act/Sigmoid_output_0: 3c021417
/model.3/act/Mul_output_0: 3d41d52e
/model.4/cv1/conv/Conv_output_0: 3dae8ab0
/model.4/cv1/act/Sigmoid_output_0: 3c053963
/model.4/cv1/act/Mul_output_0: 3d4332e1
/model.22/dfl/conv/Conv_output_0: 3df53947
/model.22/Constant_13_output_0_output: 0
/model.22/Div_1_output_0: 3f273a74
/model.22/Split_output_1: 3e010a14
/model.22/Add_4_output_0: 3e9f4871
/model.11/Concat_output_0: 3ce86ea7
/model.21/m.0/cv1/conv/Conv_output_0: 3d7c2e2e
/model.16/act/Mul_output_0: 3d112453
/model.22/Transpose_output_0: 3f204a85
/model.22/Concat_20_output_0: 3e1d4449
/model.14/Concat_output_0: 3d0ffbd1
/model.22/Add_5_output_0: 3e010a14
/model.12/Concat_output_0: 3d13516c
/model.12/cv2/conv/Conv_output_0: 3d75d3a2
/model.12/cv1/act/Mul_output_0: 3d0156c9
/model.12/m.0/cv1/conv/Conv_output_0: 3d84cf4d
/model.12/Slice_1_output_0: 3d0156c9
/model.22/dfl/Reshape_1_output_0: 3df53947
ONNXTRT_ShapeShuffle_625_output: 3c010a14
ONNXTRT_ShapeShuffle_669_output: 0
/model.22/Reshape_9_output_0: 3e9f4871
/model.12/m.0/cv1/act/Sigmoid_output_0: 3c01072f
/model.22/Expand_2_output_0: 3e9f4871
/model.12/m.0/cv1/act/Mul_output_0: 3cd10b03
/model.13/Resize_output_0: 3d021541
/model.22/cv3.0/cv3.0.1/act/Sigmoid_output_0: 3c0111d0
/model.21/cv1/act/Sigmoid_output_0: 3c009e56
/model.22/cv3.0/cv3.0.2/Conv_output_0: 3e94ee8b
/model.18/cv2/act/Mul_output_0: 3d1119a0
/model.15/Slice_1_output_0: 3d01e856
/model.18/m.0/cv1/act/Mul_output_0: 3d0159c9
/model.21/cv1/act/Mul_output_0: 3d00a76b
/model.22/Reshape_11_output_0: 3e9f4871
/model.18/Concat_output_0: 3cff8b0d
/model.18/m.0/cv2/act/Sigmoid_output_0: 3c00930c
/model.4/Slice_output_0: 3d4332e1
/model.18/Slice_output_0: 3cff8b0d
ONNXTRT_ShapeShuffle_694_output: 3c010a14
/model.22/Sub_output_0: 3f20e46f
/model.22/Constant_42_output_0_output: 3c010a14
/model.22/cv3.2/cv3.2.1/act/Sigmoid_output_0: 3c01eabe
/model.22/Reshape_15_output_0: 3e1d4449
/model.22/Reshape_10_output_0: 3e9f4871
/model.12/m.0/cv2/conv/Conv_output_0: 3d7f8f7b
/model.22/Reshape_output_0: 3e6b0bba
/model.19/act/Sigmoid_output_0: 3c00ad5f
/model.12/cv1/conv/Conv_output_0: 3d749f9a
/model.22/Reshape_3_output_0: 3f204a85
/model.22/Concat_24_output_0: 3f209e2e
/model.22/cv2.0/cv2.0.2/Conv_output_0: 3dc8484f
/model.10/Resize_output_0: 3d01e19f
/model.22/Constant_39_output_0_output: 3c010a14
/model.22/cv3.0/cv3.0.0/conv/Conv_output_0: 3d863629
/model.22/cv2.2/cv2.2.0/act/Sigmoid_output_0: 3c01e8b0
/model.22/Constant_41_output_0_output: 0
/model.22/dfl/Softmax_output: 3bd92d64
/model.22/Unsqueeze_9_output_0: 3e1d4449
ONNXTRT_Broadcast_741_output: 3e810a14
/model.22/cv2.0/cv2.0.1/act/Mul_output_0: 3d93ae8a
/model.22/cv2.2/cv2.2.0/act/Mul_output_0: 3cc31372
/model.22/Unsqueeze_4_output_0: 3f204a85
/model.22/cv2.2/cv2.2.2/Conv_output_0: 3d28a7e0
/model.4/Slice_1_output_0: 3d2903cf
/model.4/m.0/cv1/conv/Conv_output_0: 3da2290c
/model.4/m.0/cv1/act/Sigmoid_output_0: 3c00f06c
/model.4/m.0/cv1/act/Mul_output_0: 3d129bc9
/model.4/m.0/cv2/conv/Conv_output_0: 3dabe132
/model.4/m.0/cv2/act/Sigmoid_output_0: 3c0110bb
/model.4/m.0/cv2/act/Mul_output_0: 3d1337fe
/model.4/m.0/Add_output_0: 3da4c16c
/model.4/m.1/cv1/conv/Conv_output_0: 3d9a8ab2
/model.4/m.1/cv1/act/Sigmoid_output_0: 3c00e7b3
/model.4/m.1/cv1/act/Mul_output_0: 3d12bbe4
/model.4/m.1/cv2/conv/Conv_output_0: 3d99a3f4
/model.4/m.1/cv2/act/Sigmoid_output_0: 3c011105
/model.4/m.1/cv2/act/Mul_output_0: 3d41c450
/model.4/m.1/Add_output_0: 3dbe422f
/model.4/Concat_output_0: 3d903497
/model.4/cv2/conv/Conv_output_0: 3d9a3eb5
/model.4/cv2/act/Sigmoid_output_0: 3c00ef75
/model.4/cv2/act/Mul_output_0: 3d0ffbd1
/model.5/conv/Conv_output_0: 3d8c4ac7
/model.5/act/Sigmoid_output_0: 3c00ecd0
/model.5/act/Mul_output_0: 3d26b8e9
/model.6/cv1/conv/Conv_output_0: 3d742e8e
/model.6/cv1/act/Sigmoid_output_0: 3c00e495
/model.6/cv1/act/Mul_output_0: 3ce9077d
ONNXTRT_Broadcast_696_output: 3b810a14
/model.20/Concat_output_0: 3cd16048
/model.22/cv2.1/cv2.1.2/Conv_output_0: 3ddf0e5a
/model.22/dfl/Transpose_output_0: 3ddc9794
/model.22/Constant_24_output_0_output: 0
/model.22/cv3.2/cv3.2.2/Conv_output_0: 3dfcbad3
/model.12/cv1/act/Sigmoid_output_0: 3c00f033
/model.22/cv3.1/cv3.1.1/conv/Conv_output_0: 3dad0982
/model.22/Unsqueeze_7_output_0: 3e9f4871
/model.21/Concat_output_0: 3d030c47
/model.18/cv2/conv/Conv_output_0: 3d83285b
/model.22/cv2.0/cv2.0.0/act/Sigmoid_output_0: 3c010e82
/model.22/cv3.1/cv3.1.0/act/Sigmoid_output_0: 3c010806
/model.22/Constant_10_output_0_output: 0
/model.22/cv2.2/cv2.2.1/conv/Conv_output_0: 3db6dc45
onnx::Reshape_718: 3e729ce3
/model.22/Squeeze_1_output_0: 3e010a14
ONNXTRT_ShapeShuffle_557_output: 3c010a14
/model.21/cv2/act/Sigmoid_output_0: 3c01d5f3
/model.22/Sigmoid_output_0: 3bd74f68
/model.12/cv2/act/Mul_output_0: 3d021541
/model.22/Reshape_5_output_0: 3f204a85
/model.22/cv2.1/cv2.1.0/act/Mul_output_0: 3d101ecf
/model.22/Squeeze_2_output_0: 3e810a14
/model.18/cv1/act/Sigmoid_output_0: 3c00ea65
/model.22/Split_output_2: 3e810a14
ONNXTRT_ShapeShuffle_546_output: 3c010a14
/model.22/cv2.0/cv2.0.0/act/Mul_output_0: 3d281dbe
/model.22/Add_6_output_0: 3e1d4449
/model.15/cv2/act/Mul_output_0: 3ce62096
/model.12/m.0/cv2/act/Sigmoid_output_0: 3c011033
/model.22/Transpose_1_output_0: 3e810a14
/model.22/cv3.1/cv3.1.2/Conv_output_0: 3e62d698
/model.22/Add_7_output_0: 3e1d4449
/model.22/cv2.1/cv2.1.1/act/Sigmoid_output_0: 3c00dbee
/model.6/Slice_output_0: 3ce9077d
tmp_refittable_weight_1_output: 0
/model.22/cv3.1/cv3.1.0/conv/Conv_output_0: 3d91b93a
/model.22/Range_4_output_0: 3e193bf8
/model.22/Range_5_output_0: 3e193bf8
/model.22/Expand_1_output_0: 3f204a85
/model.15/cv1/act/Sigmoid_output_0: 3c0107f1
/model.22/Add_11_output_0: 3fa73a74
/model.17/Concat_output_0: 3ce7dfe2
/model.22/ConstantOfShape_1_output_0: 0
/model.15/cv2/act/Sigmoid_output_0: 3c00f0a5
/model.15/m.0/cv2/act/Mul_output_0: 3d25ced0
/model.22/Add_10_output_0: 3f32d153
/model.15/m.0/cv2/conv/Conv_output_0: 3d7caaed
/model.15/m.0/cv1/conv/Conv_output_0: 3d846116
/model.12/cv2/act/Sigmoid_output_0: 3c00f676
/model.22/Constant_7_output_0_output: 3e810a14
/model.22/Range_1_output_0: 3f1f4871
/model.22/Constant_14_output_0_output: 3c010a14
/model.22/Reshape_16_output_0: 3e1d4449
/model.22/Unsqueeze_10_output_0: 3e1d4449
/model.22/Constant_28_output_0_output: 3c010a14
/model.22/Constant_38_output_0_output: 0
ONNXTRT_Broadcast_627_output: 3b810a14
/model.22/Constant_29_output_0_output: 3b810a14
/model.22/Concat_22_output_0: 3f204a85
/model.22/cv3.1/cv3.1.0/act/Mul_output_0: 3d12e3a3
/model.6/Slice_1_output_0: 3ce6dd41
/model.6/m.0/cv1/conv/Conv_output_0: 3d7ff66c
/model.6/m.0/cv1/act/Sigmoid_output_0: 3c00cb64
/model.6/m.0/cv1/act/Mul_output_0: 3d0273ea
/model.6/m.0/cv2/conv/Conv_output_0: 3d6edf81
/model.6/m.0/cv2/act/Sigmoid_output_0: 3c00d830
/model.6/m.0/cv2/act/Mul_output_0: 3d000df1
/model.6/m.0/Add_output_0: 3d8d2607
/model.6/m.1/cv1/conv/Conv_output_0: 3d83af5b
/model.6/m.1/cv1/act/Sigmoid_output_0: 3c00d6b1
/model.6/m.1/cv1/act/Mul_output_0: 3ce9d116
/model.6/m.1/cv2/conv/Conv_output_0: 3d876ebe
/model.6/m.1/cv2/act/Sigmoid_output_0: 3c00e8aa
/model.6/m.1/cv2/act/Mul_output_0: 3d10d6b5
/model.6/m.1/Add_output_0: 3daaa4b5
/model.6/Concat_output_0: 3d6d5ffa
/model.6/cv2/conv/Conv_output_0: 3d7abeb2
/model.6/cv2/act/Sigmoid_output_0: 3c00f04a
/model.6/cv2/act/Mul_output_0: 3d114f2b
/model.7/conv/Conv_output_0: 3d7c8a64
/model.7/act/Sigmoid_output_0: 3c00f837
/model.7/act/Mul_output_0: 3cffd47a
/model.8/cv1/conv/Conv_output_0: 3d8934e0
/model.8/cv1/act/Sigmoid_output_0: 3c010a3d
/model.8/cv1/act/Mul_output_0: 3d02ac44
/model.22/cv2.1/cv2.1.0/act/Sigmoid_output_0: 3c00dc4e
/model.22/Reshape_2_output_0: 3dfcbad3
/model.15/Concat_output_0: 3d00fe00
/model.21/m.0/cv1/act/Sigmoid_output_0: 3c00f068
ONNXTRT_Broadcast_615_output: 3b810a14
/model.22/dfl/Reshape_output_0: 3ddc9794
/model.22/Constant_25_output_0_output: 3c010a14
/model.22/Squeeze_output_0: 3d810a14
/model.22/Add_3_output_0: 3e9f4871
ONNXTRT_ShapeShuffle_738_output: 0
ONNXTRT_Broadcast_848_output: 3c810a14
ONNXTRT_flattenTensor_output: 3ddc9794
/model.22/Add_1_output_0: 3f204a85
ONNXTRT_Broadcast_output: 3b810a14
/model.22/cv2.2/cv2.2.1/act/Sigmoid_output_0: 3c01f5f5
/model.22/Expand_3_output_0: 3e9f4871
ONNXTRT_Broadcast_684_output: 3b810a14
/model.22/Constant_15_output_0_output: 3b810a14
/model.22/cv2.0/cv2.0.1/act/Sigmoid_output_0: 3c02141a
/model.22/dfl/Transpose_1_output_0: 3bd92d64
/model.21/cv1/conv/Conv_output_0: 3d540897
/model.22/Reshape_8_output_0: 3e9f4871
/model.18/m.0/cv2/act/Mul_output_0: 3cd20703
/model.18/m.0/cv1/conv/Conv_output_0: 3d77de7f
/model.22/Unsqueeze_6_output_0: 3e9f4871
/model.22/Concat_10_output_0: 3f204a85
/model.22/cv2.1/cv2.1.1/act/Mul_output_0: 3d24468d
/model.15/m.0/cv1/act/Sigmoid_output_0: 3c00eb8f
/model.22/Reshape_7_output_0: 3f204a85
/model.22/Reshape_17_output_0: 3e1d4449
/model.15/Slice_output_0: 3d12bc45
/model.22/Reshape_12_output_0: 3e9f4871
ONNXTRT_Broadcast_855_output: 3e810a14
/model.22/ConstantOfShape_output_0: 0
/model.22/Sub_1_output_0: 3e6e26ae
/model.8/Slice_output_0: 3d130c46
/model.22/dfl/Softmax_output_0: 3bd92d64
/model.18/m.0/cv2/conv/Conv_output_0: 3d62226d
/model.22/Split_1_output_0: 3ddc9794
/model.22/Constant_56_output_0_output: 3c810a14
ONNXTRT_ShapeShuffle_682_output: 3c010a14
/model.21/cv2/act/Mul_output_0: 3c9a69e8
/model.22/Add_output_0: 3f204a85
/model.22/Constant_12_output_0_output: 3b810a14
/model.16/conv/Conv_output_0: 3d82865f
/model.22/cv3.2/cv3.2.0/act/Sigmoid_output_0: 3c011ed7
/model.22/Expand_output_0: 3f204a85
/model.22/Concat_6_output_0: 3e6b0bba
/model.22/cv2.1/cv2.1.0/conv/Conv_output_0: 3d7bd3c3
/model.22/Constant_11_output_0_output: 3c010a14
/model.21/m.0/cv2/conv/Conv_output_0: 3d8da8b1
/model.22/Reshape_1_output_0: 3e729ce3
/model.22/Split_output_0: 3d810a14
/model.15/cv1/act/Mul_output_0: 3cea6b9b
/model.22/Constant_40_output_0_output: 3b810a14
/model.22/cv3.1/cv3.1.1/act/Mul_output_0: 3d242525
/model.22/Constant_43_output_0_output: 3b810a14
/model.22/cv2.1/cv2.1.1/conv/Conv_output_0: 3d809dd4
/model.22/cv3.0/cv3.0.0/act/Mul_output_0: 3d02f476
/model.22/cv3.0/cv3.0.1/act/Mul_output_0: 3d25da8e
/model.18/cv1/conv/Conv_output_0: 3d778a11
/model.19/conv/Conv_output_0: 3d66863b
/model.8/Slice_1_output_0: 3d02ac44
/model.8/m.0/cv1/conv/Conv_output_0: 3d7fceac
/model.8/m.0/cv1/act/Sigmoid_output_0: 3c030627
/model.8/m.0/cv1/act/Mul_output_0: 3ce8eedb
/model.8/m.0/cv2/conv/Conv_output_0: 3d966eff
/model.8/m.0/cv2/act/Sigmoid_output_0: 3c020736
/model.8/m.0/cv2/act/Mul_output_0: 3d273f8f
/model.8/m.0/Add_output_0: 3dbd0052
/model.8/Concat_output_0: 3d27a7af
/model.8/cv2/conv/Conv_output_0: 3d93ff7e
/model.8/cv2/act/Sigmoid_output_0: 3c02023e
/model.8/cv2/act/Mul_output_0: 3ce68e58
/model.9/cv1/conv/Conv_output_0: 3d9b3682
/model.9/cv1/act/Sigmoid_output_0: 3c021330
/model.9/cv1/act/Mul_output_0: 3d138f1c
/model.9/m/MaxPool_output_0: 3d138f1c
/model.9/m_1/MaxPool_output_0: 3d138f1c
/model.9/m_2/MaxPool_output_0: 3d138f1c
/model.9/Concat_output_0: 3dc1b3ba
/model.9/cv2/conv/Conv_output_0: 3d445b77
/model.9/cv2/act/Sigmoid_output_0: 3c009638
/model.9/cv2/act/Mul_output_0: 3d01e19f
